FFFFFFCD
00000005
FFFFFFDE
FFFFFFD3
FFFFFFCF
0000000E
00000022
FFFFFFF4
00000015
00000015
00000007
FFFFFFD1
FFFFFFD6
0000001C
0000001E
00000000
00000001
00000020
FFFFFFE8
00000022
00000024
00000022
FFFFFFD5
FFFFFFFF
FFFFFFD8
FFFFFFED
FFFFFFD8
0000000F
FFFFFFEB
FFFFFFD0
FFFFFFD8
00000020
00000018
FFFFFFDD
FFFFFFE1
FFFFFFF0
FFFFFFCA
0000000E
00000003
FFFFFFEC
00000019
00000019
0000001F
FFFFFFE2
00000016
00000005
00000008
0000000E
FFFFFFEB
00000009
00000016
00000008
00000010
FFFFFFD6
FFFFFFC6
00000019
0000002A
FFFFFFF1
FFFFFFF8
FFFFFFCF
0000002B
FFFFFFF0
00000001
0000000F
00000004
FFFFFFFA
FFFFFFEF
00000003
FFFFFFDE
FFFFFFD8
FFFFFFF8
FFFFFFDC
FFFFFFF5
00000009
FFFFFFD2
0000002A
FFFFFFED
FFFFFFF3
FFFFFFE0
0000001E
00000009
FFFFFFDF
00000006
00000008
0000000D
FFFFFFDB
FFFFFFE8
FFFFFFFA
0000000F
0000001A
00000013
FFFFFFE3
FFFFFFE3
00000012
00000015
00000019
0000002D
0000002A
FFFFFFF4
FFFFFFDA
0000000E
0000001F
FFFFFFE5
00000025
FFFFFFF4
FFFFFFD9
0000000D
FFFFFFF3
0000001C
FFFFFFF5
0000001C
00000015
00000013
FFFFFFE0
00000003
00000005
FFFFFFE2
FFFFFFF4
0000000A
FFFFFFE6
FFFFFFE2
FFFFFFF9
0000000E
00000022
FFFFFFE8
FFFFFFE2
00000020
00000026
00000003
00000005
00000005
0000001B
00000005
00000003
FFFFFFE6
00000026
00000019
FFFFFFE3
00000003
FFFFFFEA
00000014
FFFFFFE8
FFFFFFEE
0000000F
00000003
FFFFFFB5
0000001F
0000000A
00000016
FFFFFFD1
0000001C
0000001A
FFFFFFCC
0000002A
00000025
00000008
0000001B
00000016
0000001F
00000009
00000001
FFFFFFDD
FFFFFFF2
0000000A
FFFFFFE2
FFFFFFDC
FFFFFFEA
FFFFFFFA
00000010
FFFFFFD0
00000019
0000001A
FFFFFFFE
FFFFFFE7
FFFFFFE4
00000006
FFFFFFDB
FFFFFFF6
FFFFFFF0
FFFFFFFE
FFFFFFFB
0000002B
FFFFFFCC
00000022
FFFFFFE9
00000000
00000001
00000015
FFFFFFF5
00000027
FFFFFFF8
00000017
00000008
FFFFFFFE
0000000F
FFFFFFDA
FFFFFFEC
0000000B
00000008
FFFFFFDB
FFFFFFD0
FFFFFFDD
00000010
FFFFFFE1
00000015
00000020
0000000C
FFFFFFE6
00000022
FFFFFFDF
0000001A
FFFFFFE4
FFFFFFF1
FFFFFFCA
00000008
FFFFFFDC
0000002D
0000000F
0000001C
00000012
FFFFFFEC
FFFFFFD5
FFFFFFF2
00000024
FFFFFFED
00000027
00000014
FFFFFFF4
00000026
FFFFFFDB
0000001E
00000014
FFFFFFF1
00000006
00000000
00000016
0000000E
0000000D
0000000D
FFFFFFDA
FFFFFFF4
00000011
0000000B
00000010
FFFFFFCC
FFFFFFF2
0000001A
FFFFFFDB
00000006
00000009
FFFFFFF8
00000010
00000013
FFFFFFC5
00000003
0000001E
FFFFFFFF
00000014
00000015
0000000C
00000011
FFFFFFF1
00000013
FFFFFFFD
00000021
00000009
00000003
00000008
FFFFFFFD
00000023
FFFFFFFB
FFFFFFE0
FFFFFFFD
00000022
FFFFFFD5
FFFFFFE8
FFFFFFC3
FFFFFFEE
FFFFFFE1
FFFFFFDC
FFFFFFE0
FFFFFFD3
FFFFFFE7
00000010
FFFFFFF6
FFFFFFD8
FFFFFFF1
FFFFFFE0
